#ifndef C_MODEL__V12_H
#define C_MODEL__V12_H


unsigned int c_model__v12_len = 6764;
unsigned char c_model__v12[] = {
 0x1c, 0x00, 0x00, 0x00, 0x54, 0x46, 0x4c, 0x33, 0x14, 0x00, 0x20, 0x00,
  0x1c, 0x00, 0x18, 0x00, 0x14, 0x00, 0x10, 0x00, 0x0c, 0x00, 0x00, 0x00,
  0x08, 0x00, 0x04, 0x00, 0x14, 0x00, 0x00, 0x00, 0x1c, 0x00, 0x00, 0x00,
  0x8c, 0x00, 0x00, 0x00, 0xe4, 0x00, 0x00, 0x00, 0x9c, 0x0f, 0x00, 0x00,
  0xac, 0x0f, 0x00, 0x00, 0xd8, 0x19, 0x00, 0x00, 0x03, 0x00, 0x00, 0x00,
  0x01, 0x00, 0x00, 0x00, 0x04, 0x00, 0x00, 0x00, 0x5e, 0xef, 0xff, 0xff,
  0x0c, 0x00, 0x00, 0x00, 0x1c, 0x00, 0x00, 0x00, 0x3c, 0x00, 0x00, 0x00,
  0x0f, 0x00, 0x00, 0x00, 0x73, 0x65, 0x72, 0x76, 0x69, 0x6e, 0x67, 0x5f,
  0x64, 0x65, 0x66, 0x61, 0x75, 0x6c, 0x74, 0x00, 0x01, 0x00, 0x00, 0x00,
  0x04, 0x00, 0x00, 0x00, 0x90, 0xff, 0xff, 0xff, 0x10, 0x00, 0x00, 0x00,
  0x04, 0x00, 0x00, 0x00, 0x08, 0x00, 0x00, 0x00, 0x64, 0x65, 0x6e, 0x73,
  0x65, 0x5f, 0x31, 0x39, 0x00, 0x00, 0x00, 0x00, 0x01, 0x00, 0x00, 0x00,
  0x04, 0x00, 0x00, 0x00, 0x42, 0xf0, 0xff, 0xff, 0x04, 0x00, 0x00, 0x00,
  0x0f, 0x00, 0x00, 0x00, 0x63, 0x6f, 0x6e, 0x76, 0x32, 0x64, 0x5f, 0x31,
  0x38, 0x5f, 0x69, 0x6e, 0x70, 0x75, 0x74, 0x00, 0x02, 0x00, 0x00, 0x00,
  0x34, 0x00, 0x00, 0x00, 0x04, 0x00, 0x00, 0x00, 0xdc, 0xff, 0xff, 0xff,
  0x13, 0x00, 0x00, 0x00, 0x04, 0x00, 0x00, 0x00, 0x13, 0x00, 0x00, 0x00,
  0x43, 0x4f, 0x4e, 0x56, 0x45, 0x52, 0x53, 0x49, 0x4f, 0x4e, 0x5f, 0x4d,
  0x45, 0x54, 0x41, 0x44, 0x41, 0x54, 0x41, 0x00, 0x08, 0x00, 0x0c, 0x00,
  0x08, 0x00, 0x04, 0x00, 0x08, 0x00, 0x00, 0x00, 0x12, 0x00, 0x00, 0x00,
  0x04, 0x00, 0x00, 0x00, 0x13, 0x00, 0x00, 0x00, 0x6d, 0x69, 0x6e, 0x5f,
  0x72, 0x75, 0x6e, 0x74, 0x69, 0x6d, 0x65, 0x5f, 0x76, 0x65, 0x72, 0x73,
  0x69, 0x6f, 0x6e, 0x00, 0x14, 0x00, 0x00, 0x00, 0xb4, 0x0e, 0x00, 0x00,
  0xac, 0x0e, 0x00, 0x00, 0x8c, 0x0e, 0x00, 0x00, 0x6c, 0x0e, 0x00, 0x00,
  0x2c, 0x0e, 0x00, 0x00, 0x5c, 0x0d, 0x00, 0x00, 0x38, 0x0d, 0x00, 0x00,
  0x00, 0x0d, 0x00, 0x00, 0xe8, 0x0c, 0x00, 0x00, 0x98, 0x01, 0x00, 0x00,
  0xc0, 0x00, 0x00, 0x00, 0xb8, 0x00, 0x00, 0x00, 0xb0, 0x00, 0x00, 0x00,
  0xa8, 0x00, 0x00, 0x00, 0xa0, 0x00, 0x00, 0x00, 0x98, 0x00, 0x00, 0x00,
  0x90, 0x00, 0x00, 0x00, 0x88, 0x00, 0x00, 0x00, 0x68, 0x00, 0x00, 0x00,
  0x04, 0x00, 0x00, 0x00, 0x0e, 0xf1, 0xff, 0xff, 0x04, 0x00, 0x00, 0x00,
  0x54, 0x00, 0x00, 0x00, 0x0c, 0x00, 0x00, 0x00, 0x08, 0x00, 0x0e, 0x00,
  0x08, 0x00, 0x04, 0x00, 0x08, 0x00, 0x00, 0x00, 0x10, 0x00, 0x00, 0x00,
  0x24, 0x00, 0x00, 0x00, 0x00, 0x00, 0x06, 0x00, 0x08, 0x00, 0x04, 0x00,
  0x06, 0x00, 0x00, 0x00, 0x04, 0x00, 0x00, 0x00, 0x00, 0x00, 0x00, 0x00,
  0x00, 0x00, 0x0a, 0x00, 0x10, 0x00, 0x0c, 0x00, 0x08, 0x00, 0x04, 0x00,
  0x0a, 0x00, 0x00, 0x00, 0x02, 0x00, 0x00, 0x00, 0x02, 0x00, 0x00, 0x00,
  0x04, 0x00, 0x00, 0x00, 0x06, 0x00, 0x00, 0x00, 0x32, 0x2e, 0x31, 0x34,
  0x2e, 0x30, 0x00, 0x00, 0x6e, 0xf1, 0xff, 0xff, 0x04, 0x00, 0x00, 0x00,
  0x10, 0x00, 0x00, 0x00, 0x31, 0x2e, 0x35, 0x2e, 0x30, 0x00, 0x00, 0x00,
  0x00, 0x00, 0x00, 0x00, 0x00, 0x00, 0x00, 0x00, 0x14, 0xe8, 0xff, 0xff,
  0x18, 0xe8, 0xff, 0xff, 0x1c, 0xe8, 0xff, 0xff, 0x20, 0xe8, 0xff, 0xff,
  0x24, 0xe8, 0xff, 0xff, 0x28, 0xe8, 0xff, 0xff, 0x2c, 0xe8, 0xff, 0xff,
  0xa6, 0xf1, 0xff, 0xff, 0x04, 0x00, 0x00, 0x00, 0xc8, 0x00, 0x00, 0x00,
  0x77, 0x4d, 0xd0, 0x3e, 0xf0, 0x12, 0xe7, 0x3e, 0x51, 0xd0, 0x47, 0xbe,
  0x9b, 0x8f, 0xc8, 0xbe, 0xbd, 0xd3, 0x7a, 0xbf, 0x4d, 0x71, 0x4e, 0x3f,
  0x54, 0xcc, 0x12, 0x3f, 0xf7, 0x28, 0x9a, 0xbe, 0xbb, 0x86, 0x74, 0xbf,
  0x35, 0x1c, 0x97, 0x3e, 0xc6, 0x5d, 0x92, 0xbe, 0xcb, 0x8a, 0xd2, 0x3e,
  0x69, 0xbb, 0xc4, 0x3e, 0xbf, 0x29, 0x31, 0xbf, 0x5d, 0x95, 0x93, 0x3e,
  0x1c, 0x83, 0xef, 0x3e, 0xb4, 0xf5, 0x98, 0xbe, 0xbd, 0xea, 0xd5, 0xbd,
  0xd7, 0xd2, 0xe4, 0x3e, 0xe5, 0x1f, 0xe7, 0xbe, 0x61, 0x49, 0x90, 0x3e,
  0x26, 0x0a, 0x1b, 0x3e, 0x29, 0xd7, 0xe3, 0xbd, 0x11, 0xba, 0xbf, 0x3e,
  0xfc, 0x06, 0x1d, 0x3e, 0x02, 0x1e, 0xa4, 0x3e, 0xde, 0xc3, 0xfd, 0xbd,
  0xef, 0x3a, 0x21, 0xbe, 0xf6, 0xa7, 0xde, 0x3e, 0x17, 0x4e, 0x76, 0x3e,
  0xb1, 0x08, 0x88, 0x3d, 0x04, 0xce, 0x1c, 0x3f, 0xa7, 0x57, 0x97, 0x3e,
  0xad, 0xf3, 0xc7, 0x3e, 0xe0, 0xb5, 0xf1, 0x3e, 0x4f, 0x8c, 0xac, 0xbe,
  0x45, 0xbb, 0x2d, 0xbe, 0x6c, 0xce, 0x5b, 0xbe, 0x2e, 0x76, 0x93, 0xbe,
  0xe7, 0x20, 0x05, 0xbf, 0x69, 0x79, 0xe4, 0x3e, 0x15, 0x88, 0xd4, 0xbb,
  0x92, 0x2a, 0x38, 0x3c, 0x70, 0xe7, 0xab, 0xbd, 0x33, 0x81, 0x2b, 0x3e,
  0x50, 0x94, 0x17, 0xbf, 0x45, 0x31, 0xfd, 0x3e, 0xa7, 0x55, 0x8a, 0x3e,
  0x3e, 0xb8, 0xf1, 0x3c, 0x70, 0x0f, 0xd5, 0x3e, 0x7a, 0xf2, 0xff, 0xff,
  0x04, 0x00, 0x00, 0x00, 0x40, 0x0b, 0x00, 0x00, 0xa0, 0xa3, 0x3f, 0xbe,
  0x13, 0xa7, 0x9d, 0x3c, 0x95, 0x81, 0x5e, 0x3c, 0x8c, 0x1e, 0xf3, 0xbe,
  0x39, 0xbc, 0x7d, 0xbe, 0x51, 0xea, 0xfb, 0xbc, 0x6c, 0xe0, 0x89, 0xbd,
  0xa7, 0x02, 0xf3, 0xbe, 0xa4, 0x4b, 0x63, 0xbe, 0xd2, 0x30, 0x97, 0xbe,
  0x42, 0x2c, 0x3e, 0xbd, 0x64, 0x6a, 0xcd, 0xbd, 0x5c, 0xfe, 0x8e, 0xbe,
  0xc1, 0xc3, 0x60, 0x3c, 0x8e, 0x2d, 0xeb, 0x3d, 0x14, 0x75, 0x74, 0xbe,
  0x7c, 0x45, 0xb6, 0xbd, 0xde, 0xb4, 0x79, 0x3e, 0x27, 0x61, 0x86, 0xba,
  0x16, 0xdc, 0x2b, 0xbd, 0x0b, 0xbe, 0xa1, 0x3e, 0xe0, 0x90, 0x3e, 0x3e,
  0xc1, 0x21, 0x88, 0xbc, 0x28, 0xb0, 0x1b, 0x3e, 0x20, 0xed, 0xb4, 0xbd,
  0x13, 0x72, 0xff, 0xbd, 0x44, 0x28, 0x3b, 0x3e, 0x9b, 0xb8, 0xe4, 0xbd,
  0x5a, 0xb4, 0x94, 0xbe, 0xe2, 0x4c, 0x8e, 0x3e, 0xed, 0xfc, 0x21, 0xbd,
  0x38, 0x11, 0xf2, 0xbe, 0x23, 0xe8, 0x7a, 0xbd, 0xf9, 0x3d, 0x69, 0xbe,
  0xe9, 0xb7, 0x06, 0xbd, 0xa7, 0xd4, 0x78, 0x3e, 0x2e, 0x06, 0xd1, 0xbd,
  0xce, 0x8b, 0xdd, 0x3d, 0x6c, 0x42, 0x8a, 0x3d, 0xad, 0x01, 0x76, 0xbe,
  0x13, 0x6b, 0xae, 0xbe, 0xef, 0xbc, 0x38, 0xbe, 0x7f, 0x8c, 0x8c, 0xbd,
  0x34, 0x0a, 0xaf, 0x3d, 0xe4, 0xb2, 0xda, 0xbe, 0x6b, 0x6e, 0x78, 0xbe,
  0x62, 0x6b, 0x83, 0xbe, 0x71, 0xd9, 0x89, 0xbe, 0x03, 0xf4, 0xbf, 0xbe,
  0xb7, 0xe2, 0x52, 0xbe, 0x02, 0x9a, 0xbe, 0xbd, 0x5e, 0x4d, 0x84, 0xbe,
  0x20, 0xff, 0x12, 0xbe, 0x67, 0x2b, 0x77, 0x3d, 0x98, 0xa8, 0x9d, 0x3d,
  0x9b, 0x4f, 0xc6, 0xbe, 0x5d, 0x74, 0xd2, 0xbe, 0xd2, 0xf7, 0xee, 0xbd,
  0x2f, 0xb0, 0xbc, 0xbe, 0xf4, 0xdf, 0xa4, 0xbd, 0x41, 0xcf, 0x8a, 0x3c,
  0xa4, 0x6f, 0x9b, 0xbe, 0x66, 0xbf, 0xb8, 0xbd, 0x2c, 0xe2, 0xba, 0xbd,
  0x54, 0x49, 0x9d, 0xbe, 0x92, 0xa4, 0xd4, 0x3d, 0xa2, 0x0c, 0x67, 0xbe,
  0xbe, 0x02, 0xe6, 0xbd, 0xd0, 0x94, 0x62, 0xbe, 0x9e, 0x50, 0x61, 0xbe,
  0x0e, 0x89, 0x4c, 0xbe, 0x61, 0x78, 0xde, 0x3c, 0x4b, 0xfc, 0x70, 0x3e,
  0x02, 0x67, 0xc6, 0xbd, 0x56, 0xc5, 0xb0, 0xbe, 0xea, 0xbd, 0x27, 0x3f,
  0x51, 0x35, 0xd0, 0xbd, 0x74, 0xa2, 0xdb, 0xbe, 0xaf, 0x86, 0x36, 0xbf,
  0xe7, 0xb9, 0x4a, 0x3f, 0x02, 0x8c, 0x06, 0x3f, 0xcf, 0x0e, 0x35, 0x3f,
  0x6a, 0xee, 0x3d, 0x3f, 0x94, 0x35, 0x82, 0xbc, 0xc3, 0x80, 0x0b, 0xbe,
  0xae, 0xe3, 0x00, 0xbd, 0xaa, 0xfc, 0x24, 0x3e, 0xab, 0xd6, 0x1a, 0xbe,
  0xea, 0x9f, 0x4a, 0xbe, 0xe1, 0x75, 0x4a, 0xbd, 0x4a, 0x4d, 0x3f, 0xbd,
  0x77, 0xdb, 0x75, 0x3e, 0xf6, 0x70, 0x69, 0xbe, 0x0c, 0x41, 0xda, 0xbe,
  0x7b, 0x74, 0x69, 0xbe, 0x58, 0xad, 0xa4, 0xbd, 0x65, 0xbf, 0x69, 0x3e,
  0x2a, 0x6f, 0xcc, 0xbe, 0xb7, 0x32, 0x18, 0x3e, 0x78, 0x16, 0x11, 0x3f,
  0x65, 0xa2, 0x24, 0x3e, 0xff, 0xcf, 0xdf, 0xbe, 0xd7, 0x89, 0x18, 0xbf,
  0xef, 0x43, 0x41, 0x3f, 0x78, 0x0e, 0xf4, 0x3e, 0xcb, 0x30, 0x40, 0x3f,
  0x0a, 0xe0, 0x46, 0x3f, 0x2c, 0xe5, 0x2f, 0xbe, 0xca, 0xa0, 0x0d, 0xbd,
  0x41, 0x4c, 0xdf, 0xbd, 0x1c, 0x5a, 0x24, 0x3e, 0xcf, 0x3b, 0x8f, 0x3e,
  0x11, 0x43, 0x86, 0x3e, 0x2e, 0x7e, 0x67, 0x3e, 0xf1, 0x89, 0x81, 0x3e,
  0x89, 0x79, 0xd3, 0x3e, 0x64, 0x98, 0xde, 0xbd, 0xda, 0x1a, 0x17, 0xbe,
  0x3c, 0x15, 0xb5, 0xbc, 0x2f, 0xda, 0xfd, 0x3c, 0xd9, 0x1f, 0x99, 0x3e,
  0x4d, 0x3a, 0x02, 0xbf, 0xdb, 0x1e, 0x91, 0xbe, 0x2a, 0x11, 0x39, 0x3f,
  0xe9, 0x5f, 0xe8, 0xbd, 0x27, 0xd1, 0x9a, 0xbe, 0xc9, 0x17, 0x1c, 0xbf,
  0xc5, 0x08, 0x3e, 0x3f, 0xff, 0xe4, 0x24, 0x3f, 0x04, 0x84, 0x68, 0x3f,
  0xee, 0x89, 0xdf, 0x3e, 0x40, 0x02, 0x9d, 0xbe, 0x05, 0xf4, 0x38, 0x3e,
  0x83, 0x02, 0x8e, 0x3d, 0xa3, 0xad, 0xd6, 0xbc, 0x40, 0xaa, 0x7d, 0x3d,
  0x90, 0x1d, 0xf0, 0x3d, 0xff, 0x4b, 0xd4, 0x3c, 0x68, 0x7c, 0x80, 0x3d,
  0x5c, 0x1d, 0xf0, 0xbd, 0xcc, 0x7d, 0xbb, 0xbd, 0xed, 0x54, 0xf2, 0xbd,
  0xec, 0x5b, 0x7f, 0xbe, 0x75, 0x77, 0x86, 0x3d, 0x61, 0xed, 0x74, 0x3e,
  0x5e, 0xe0, 0xc5, 0xbf, 0x7b, 0x0e, 0x77, 0xbf, 0x8f, 0xde, 0xaa, 0x3f,
  0x15, 0xf9, 0x7a, 0xbe, 0x77, 0x33, 0x45, 0xbf, 0xdb, 0xcf, 0x91, 0xbf,
  0xc8, 0xef, 0x77, 0x3f, 0x67, 0xab, 0xd8, 0xbd, 0xe4, 0x24, 0x09, 0xbe,
  0xb0, 0x4b, 0x89, 0xbb, 0xde, 0x59, 0x65, 0xbe, 0x6f, 0x36, 0xde, 0x3d,
  0x4d, 0xc8, 0x60, 0x3e, 0x1f, 0xca, 0xaf, 0x3d, 0xcb, 0xc0, 0x96, 0x3e,
  0x04, 0x70, 0x1a, 0x3d, 0xbe, 0x1c, 0x82, 0x3e, 0xf0, 0x1b, 0xdb, 0x3c,
  0xbe, 0x39, 0x4d, 0x3d, 0x90, 0xd0, 0x0c, 0x3c, 0xcd, 0x6b, 0xba, 0xbc,
  0x20, 0xaf, 0xac, 0xbd, 0x74, 0x11, 0x2e, 0xbd, 0x42, 0xdc, 0x36, 0xbe,
  0x0c, 0x71, 0xc2, 0xbf, 0x21, 0x73, 0x8f, 0xbf, 0x1f, 0x68, 0x9f, 0x3f,
  0xe7, 0x5e, 0x6b, 0x3e, 0x29, 0x4f, 0x54, 0xbf, 0x4c, 0xf8, 0xa0, 0xbf,
  0x19, 0xa1, 0x3e, 0x3f, 0x52, 0x92, 0x82, 0xbd, 0x5d, 0x71, 0x03, 0xbd,
  0xd1, 0x25, 0x4b, 0xbe, 0x2a, 0xf8, 0xa8, 0xbe, 0xc5, 0x8d, 0x41, 0x3e,
  0x13, 0xd4, 0x8b, 0xbe, 0x63, 0x1d, 0x16, 0xbd, 0x57, 0x0d, 0x5d, 0x3e,
  0x45, 0x88, 0x90, 0xbe, 0xb5, 0x17, 0xb3, 0x3c, 0x53, 0xdb, 0x06, 0x3d,
  0x29, 0xf1, 0xa4, 0x3e, 0x0d, 0xf8, 0x94, 0x3d, 0xfc, 0x90, 0xa2, 0x3d,
  0x59, 0xfd, 0xef, 0x3d, 0x96, 0x96, 0xe4, 0xba, 0x37, 0xe2, 0xe9, 0xbd,
  0xba, 0x34, 0xd1, 0xbf, 0x4e, 0x55, 0x91, 0xbf, 0x98, 0xc6, 0xab, 0x3f,
  0x4d, 0x51, 0x4c, 0x3e, 0x4a, 0x56, 0x5d, 0xbf, 0x73, 0xb5, 0x9c, 0xbf,
  0x5b, 0x5d, 0x94, 0x3f, 0x60, 0x73, 0xff, 0x3c, 0x57, 0xfe, 0x85, 0x3c,
  0xd6, 0x14, 0x1d, 0x3e, 0x82, 0xde, 0x9c, 0xbe, 0xa5, 0x36, 0x0f, 0xbe,
  0x86, 0x08, 0x0a, 0x3d, 0xcd, 0xe9, 0xd8, 0x3d, 0x0d, 0x27, 0xac, 0x3e,
  0xd1, 0xb6, 0xb9, 0x3e, 0x23, 0x18, 0xc5, 0x3e, 0xd7, 0x38, 0x39, 0x3d,
  0xb9, 0x09, 0x61, 0x3d, 0xb2, 0x74, 0x4d, 0x3d, 0xbb, 0x3c, 0x3a, 0x3d,
  0xe3, 0x1e, 0xf0, 0xbd, 0x09, 0x22, 0x0a, 0xbe, 0x4f, 0xfb, 0x3c, 0xbe,
  0x1e, 0x42, 0x81, 0x3f, 0x92, 0x50, 0x59, 0x3f, 0xa9, 0xc1, 0xf4, 0xbe,
  0xf7, 0x30, 0xc9, 0xbe, 0x1b, 0x47, 0x1d, 0x3f, 0xf3, 0x95, 0x2e, 0x3f,
  0x13, 0xaf, 0x5e, 0xbf, 0x5e, 0x94, 0x85, 0xbd, 0x50, 0xaa, 0x0f, 0xbc,
  0x9e, 0xf6, 0x50, 0x3d, 0x40, 0xbf, 0x16, 0x3f, 0xdb, 0x2f, 0x87, 0xbc,
  0xff, 0xd0, 0xc3, 0x3c, 0x0b, 0x50, 0xf9, 0xbc, 0xd1, 0xe5, 0xc6, 0x3c,
  0x24, 0xff, 0x97, 0x3e, 0x73, 0xac, 0xbc, 0xbc, 0x79, 0x43, 0xc0, 0x3e,
  0xfe, 0x70, 0x84, 0x3c, 0x38, 0xc5, 0x46, 0x3e, 0xa1, 0xcb, 0xb2, 0xbe,
  0x86, 0x70, 0x34, 0x3e, 0xe1, 0x9a, 0xa1, 0xbd, 0x22, 0xc5, 0x90, 0xbe,
  0x7b, 0xfb, 0x88, 0x3f, 0x19, 0xd0, 0x3b, 0x3f, 0x47, 0x89, 0xa1, 0xbe,
  0x0f, 0x43, 0xc9, 0xbe, 0xfc, 0xe4, 0x4b, 0x3f, 0x56, 0x99, 0x0a, 0x3f,
  0x65, 0x4b, 0x73, 0xbf, 0xc7, 0x04, 0x00, 0xbe, 0x12, 0xed, 0xb3, 0xbc,
  0xa2, 0x37, 0x57, 0xbd, 0x88, 0xf9, 0xf7, 0x3e, 0x6f, 0x28, 0x16, 0x3c,
  0xb4, 0x1a, 0x1c, 0xbc, 0x4b, 0xd2, 0xae, 0xbc, 0xcf, 0x68, 0x2c, 0x3d,
  0x60, 0x6c, 0xf1, 0x3d, 0x77, 0x32, 0xc7, 0x3c, 0xcd, 0xcc, 0x04, 0x3e,
  0x9b, 0xe9, 0x6f, 0x3e, 0x8d, 0x73, 0x61, 0x3d, 0x5c, 0x83, 0x83, 0xbe,
  0xb5, 0x72, 0x11, 0xbc, 0xde, 0x4b, 0x27, 0xbb, 0xaa, 0x6f, 0xe1, 0xbd,
  0xdc, 0x98, 0xae, 0x3f, 0x57, 0x09, 0x0f, 0x3f, 0xa9, 0xb5, 0x20, 0xbf,
  0x90, 0xff, 0xb4, 0xbd, 0x19, 0x03, 0x3e, 0x3f, 0x6e, 0xe6, 0x21, 0x3f,
  0xa7, 0xa4, 0x3b, 0xbf, 0x31, 0x88, 0x5e, 0xbd, 0xc1, 0x8a, 0xe5, 0x3d,
  0x42, 0x22, 0x75, 0xbd, 0xe0, 0xe3, 0xec, 0x3e, 0xad, 0xfc, 0x15, 0xbc,
  0xc1, 0xa1, 0x2b, 0x3d, 0x60, 0x93, 0x00, 0x3d, 0x12, 0xe1, 0x8f, 0x3d,
  0xe5, 0x69, 0x92, 0x3e, 0xec, 0x8e, 0x6d, 0xbc, 0xa6, 0x4e, 0x90, 0x3e,
  0x9e, 0xf8, 0x6b, 0x3e, 0x5f, 0x84, 0xd2, 0x3d, 0x0d, 0x9b, 0x1f, 0xbe,
  0x1f, 0x6c, 0x07, 0xbd, 0x3e, 0x97, 0xc2, 0x3d, 0xad, 0x8d, 0x92, 0xbe,
  0xd5, 0x66, 0xb9, 0xbe, 0x41, 0xd2, 0x04, 0xbf, 0x2a, 0x51, 0x26, 0x3f,
  0xb8, 0xc3, 0x26, 0xbe, 0x90, 0x88, 0xed, 0xbd, 0x8c, 0x90, 0x3f, 0x3e,
  0x61, 0xe2, 0x89, 0x3e, 0xd9, 0x37, 0xd4, 0xbe, 0xc0, 0xe5, 0x11, 0xbe,
  0x5f, 0x14, 0xb8, 0xbe, 0xf3, 0xd6, 0xdd, 0x3e, 0x9f, 0xbf, 0x9d, 0x3e,
  0x4e, 0x96, 0x54, 0x3c, 0xcc, 0x03, 0xdd, 0x3d, 0xc5, 0xe3, 0xd0, 0xbd,
  0xcc, 0xd8, 0xaf, 0x3e, 0xce, 0x96, 0xd4, 0x3d, 0x62, 0xa3, 0x21, 0xbd,
  0x64, 0x33, 0x72, 0x3e, 0x92, 0x87, 0xcb, 0x3c, 0x24, 0x70, 0xc5, 0x3d,
  0x5f, 0x59, 0x51, 0x3e, 0x41, 0x59, 0x94, 0x3e, 0xc6, 0x30, 0xcd, 0xbd,
  0xef, 0xf8, 0x83, 0xbe, 0x76, 0x4d, 0x1c, 0xbf, 0xa5, 0x0c, 0x02, 0x3f,
  0x2a, 0x85, 0xa6, 0x3d, 0x21, 0x52, 0x3f, 0xbe, 0xa0, 0xfc, 0x0f, 0xbe,
  0x5d, 0xa8, 0x7f, 0x3e, 0x64, 0x28, 0x46, 0xbe, 0x4c, 0xbb, 0x8e, 0xbe,
  0x86, 0x5d, 0x90, 0xbe, 0x3a, 0x95, 0x78, 0x3e, 0xa9, 0xa0, 0xbe, 0xbd,
  0x77, 0xba, 0xa9, 0xbc, 0xb1, 0xf5, 0x5b, 0x3e, 0xf1, 0x03, 0x06, 0xbe,
  0x21, 0x1b, 0x8a, 0x3e, 0xe5, 0xfd, 0xcf, 0x3c, 0xf6, 0xe7, 0x41, 0x3c,
  0x4c, 0xce, 0x05, 0x3d, 0x12, 0x5a, 0xa6, 0x3e, 0x69, 0xa0, 0x0e, 0x3e,
  0xb3, 0xff, 0x2c, 0xbd, 0x13, 0xbf, 0x14, 0x3d, 0x82, 0x84, 0x09, 0xbd,
  0xa4, 0x3b, 0x28, 0xbf, 0x8a, 0x46, 0x36, 0xbf, 0x96, 0x20, 0x25, 0x3f,
  0x5b, 0x99, 0x71, 0xbe, 0x1f, 0xe9, 0x2b, 0x3e, 0x34, 0x24, 0x7c, 0xbe,
  0xb3, 0x3b, 0xcf, 0x3e, 0x03, 0xf8, 0xc8, 0xbe, 0x32, 0x37, 0x88, 0xbe,
  0xe4, 0x29, 0xa1, 0xbe, 0x4e, 0x38, 0x65, 0x3e, 0x9d, 0x2a, 0x4e, 0x3e,
  0x02, 0x28, 0xa8, 0x3e, 0x9d, 0xdb, 0xa3, 0x3e, 0xd2, 0xd9, 0xf4, 0xbc,
  0x10, 0x30, 0x6d, 0x3d, 0x2a, 0xef, 0x1a, 0xbd, 0x1d, 0xc7, 0xe4, 0xbc,
  0x82, 0x70, 0xd5, 0x3d, 0x79, 0xc6, 0x39, 0x3e, 0x96, 0xcd, 0xe9, 0xbd,
  0x9d, 0xe2, 0x1d, 0x3e, 0x80, 0xc9, 0x95, 0x3d, 0xd9, 0x36, 0x2d, 0x3f,
  0x16, 0x87, 0x14, 0x3f, 0xd7, 0xda, 0x31, 0x3f, 0xfc, 0xce, 0xe7, 0xbe,
  0xa4, 0xe8, 0xd8, 0x3e, 0xd6, 0x8e, 0xc1, 0xbe, 0x26, 0xbc, 0x01, 0xbf,
  0x2e, 0x9e, 0x88, 0x3f, 0x34, 0x4f, 0x6c, 0x3f, 0xfc, 0xf8, 0x55, 0x3f,
  0xf3, 0x45, 0x57, 0x3f, 0x8d, 0x0d, 0xb1, 0x3e, 0xe0, 0x83, 0xea, 0x3d,
  0xc9, 0x0c, 0x77, 0x3e, 0x96, 0x4b, 0x8b, 0xbd, 0x94, 0xc1, 0x2b, 0x3d,
  0x70, 0xc5, 0x07, 0x3d, 0x63, 0x86, 0x1a, 0xbd, 0xed, 0xf3, 0x95, 0xbd,
  0xe2, 0x80, 0x56, 0x3d, 0x00, 0xf0, 0x37, 0xbe, 0x49, 0x4d, 0x3f, 0x3c,
  0x59, 0x14, 0xb4, 0xbd, 0x4b, 0x12, 0x7f, 0xbd, 0x21, 0x45, 0xbc, 0x3e,
  0x6a, 0x13, 0x0c, 0x3f, 0x40, 0x2d, 0x47, 0x3f, 0x75, 0x37, 0x9f, 0xbe,
  0x88, 0x1f, 0x4d, 0x3e, 0x03, 0xc7, 0x1a, 0xbe, 0x5b, 0x2c, 0x0a, 0xbf,
  0x5f, 0x9d, 0x9f, 0x3f, 0xd8, 0xb8, 0x4f, 0x3f, 0xbd, 0x11, 0x17, 0x3f,
  0x8c, 0x5f, 0x11, 0x3f, 0xf7, 0xd6, 0xbe, 0x3e, 0x0a, 0x8a, 0x7d, 0xbc,
  0x0d, 0xd5, 0x6c, 0x3d, 0xa6, 0xf5, 0x9d, 0x3d, 0x9b, 0xe7, 0xe8, 0x3d,
  0xcb, 0x5b, 0x8f, 0x3d, 0x99, 0x19, 0x51, 0x3d, 0x72, 0xb3, 0x9f, 0xbd,
  0x9d, 0x7d, 0x26, 0x3d, 0xf8, 0xb9, 0x0a, 0xbe, 0x32, 0x4f, 0x3e, 0x3d,
  0xce, 0x9b, 0x14, 0xbd, 0x96, 0x61, 0x81, 0xbe, 0x38, 0xe4, 0x0d, 0x3f,
  0xa2, 0x01, 0x4f, 0x3e, 0x74, 0x06, 0x1d, 0x3f, 0xdc, 0x6e, 0x98, 0xbe,
  0xfd, 0xf7, 0x31, 0x3e, 0xae, 0x66, 0x02, 0xbf, 0x13, 0xc7, 0x12, 0xbf,
  0x34, 0x52, 0xc1, 0x3f, 0x2a, 0xf0, 0x5d, 0x3f, 0x79, 0x6d, 0x3a, 0x3f,
  0x3b, 0xd5, 0x31, 0x3f, 0x63, 0xc5, 0x40, 0x3f, 0xbb, 0xd6, 0xb4, 0x3d,
  0x56, 0x80, 0x4c, 0x3e, 0xa4, 0x48, 0xfd, 0x3d, 0x11, 0xf5, 0x8b, 0x3d,
  0x0c, 0x31, 0xa9, 0x3c, 0x1a, 0x6e, 0x83, 0xbd, 0xba, 0x05, 0xe6, 0xbd,
  0xc3, 0x52, 0x14, 0x3c, 0x6b, 0xab, 0x36, 0xbe, 0xf6, 0x4f, 0x4b, 0x3d,
  0x35, 0x20, 0xab, 0xbd, 0xcd, 0xde, 0x98, 0xbc, 0x93, 0x7b, 0xac, 0x3e,
  0x8f, 0x7b, 0xf6, 0x3e, 0xc5, 0xaf, 0xaf, 0x3e, 0x85, 0xaf, 0x0d, 0x3f,
  0x31, 0x35, 0x11, 0x3f, 0xed, 0x5c, 0x4d, 0x3f, 0xd5, 0x4c, 0x51, 0x3f,
  0x43, 0x6a, 0x42, 0x3e, 0x40, 0xc1, 0x9f, 0x3e, 0xf3, 0x74, 0xfa, 0x3e,
  0xe5, 0x4e, 0xbb, 0x3e, 0xd8, 0x05, 0x16, 0xbe, 0x1a, 0x2a, 0x7c, 0xbb,
  0xc8, 0x5a, 0x0c, 0xbe, 0x16, 0x77, 0xeb, 0xbd, 0xac, 0x7e, 0xbd, 0xbd,
  0x10, 0xf0, 0x5d, 0x3d, 0x93, 0x16, 0x1f, 0xbe, 0xb0, 0xb3, 0x29, 0x3d,
  0xea, 0x22, 0x1b, 0x3d, 0xcc, 0x35, 0x04, 0x3e, 0x1e, 0xdb, 0xaa, 0x3e,
  0x35, 0x82, 0x83, 0x3e, 0x91, 0x20, 0x35, 0x3e, 0xcd, 0x98, 0xc0, 0x3e,
  0x8d, 0x01, 0x2e, 0x3f, 0x30, 0x65, 0x04, 0x3f, 0x2e, 0x91, 0x04, 0x3f,
  0x62, 0x00, 0x24, 0x3f, 0x7b, 0xc8, 0x05, 0x3f, 0x4c, 0x37, 0x3a, 0x3f,
  0x89, 0x9b, 0xf0, 0x3d, 0xf1, 0x88, 0xf3, 0x3e, 0x42, 0x90, 0x04, 0x3f,
  0x6e, 0x36, 0x17, 0x3e, 0xf7, 0x98, 0x6f, 0xbe, 0xba, 0x19, 0x07, 0xbe,
  0x7e, 0xe0, 0x1e, 0xbe, 0x52, 0x30, 0x5f, 0x3d, 0x5e, 0x75, 0x80, 0x3e,
  0x90, 0x7a, 0xf3, 0x3d, 0x51, 0x1c, 0x87, 0xbd, 0xf5, 0x17, 0x80, 0xbb,
  0x14, 0xf4, 0xf5, 0x3d, 0x62, 0xf0, 0x8d, 0x3e, 0xdf, 0xf0, 0xeb, 0x3a,
  0x7b, 0x18, 0x87, 0x3d, 0x1c, 0xdd, 0x30, 0x3e, 0x87, 0x94, 0xb8, 0x3e,
  0x45, 0xf7, 0x30, 0x3f, 0xdd, 0xef, 0x81, 0x3e, 0xc9, 0x6b, 0x4a, 0x3e,
  0x58, 0xb0, 0xf5, 0x3e, 0x18, 0xef, 0x51, 0x3f, 0x22, 0x8c, 0xea, 0x3e,
  0x92, 0x08, 0x6b, 0xbe, 0xd3, 0xbb, 0x89, 0x3e, 0x3d, 0x8f, 0x96, 0x3e,
  0x37, 0x52, 0x90, 0x3e, 0x96, 0xe8, 0xa5, 0xbc, 0xd3, 0x09, 0x38, 0x3e,
  0x28, 0x9c, 0x32, 0x3e, 0xb0, 0xac, 0xdd, 0x3d, 0xeb, 0x2a, 0x99, 0x3d,
  0x02, 0x4e, 0x46, 0xbc, 0xb6, 0xec, 0x6c, 0xbd, 0xf1, 0xda, 0xf3, 0x3d,
  0xb6, 0xce, 0x9f, 0xbd, 0xe3, 0xfb, 0x81, 0x3e, 0x2c, 0x8a, 0x2b, 0xbd,
  0x06, 0xc5, 0x8c, 0x3e, 0x1c, 0x32, 0xed, 0x3c, 0x3e, 0x56, 0xef, 0xbe,
  0x67, 0x58, 0x8c, 0x3d, 0xdc, 0x91, 0xbb, 0x3d, 0x71, 0x15, 0x69, 0xbd,
  0xf8, 0xc5, 0x3e, 0x3e, 0xb1, 0x51, 0x51, 0xbd, 0xf2, 0x07, 0x65, 0x3e,
  0x87, 0x9a, 0x0b, 0xbf, 0x7b, 0x5d, 0xee, 0xbe, 0x12, 0xac, 0xf2, 0xbe,
  0x79, 0x01, 0x1a, 0xbf, 0x4c, 0x8b, 0x98, 0xbe, 0xf6, 0x13, 0x01, 0xbe,
  0x06, 0xb9, 0x28, 0xbd, 0x19, 0x61, 0x32, 0xbe, 0x9b, 0x6c, 0x9c, 0xbc,
  0x84, 0x27, 0xd8, 0xbd, 0xee, 0x8e, 0x3a, 0xbe, 0x24, 0x25, 0x8b, 0x3d,
  0x5b, 0xa1, 0xaf, 0xbd, 0x17, 0xb9, 0xef, 0x3e, 0x77, 0x9a, 0x9e, 0xbd,
  0x0d, 0xe9, 0xbe, 0xbd, 0x58, 0xd2, 0x9a, 0xbd, 0xaf, 0x06, 0xe2, 0xbe,
  0xa6, 0x68, 0x07, 0x3e, 0x10, 0x2e, 0x9d, 0xbe, 0xbe, 0xd7, 0xb2, 0xbe,
  0xc3, 0xe3, 0xcb, 0xbd, 0x9e, 0x17, 0x05, 0xbe, 0x2d, 0xc3, 0xbe, 0x3d,
  0xb7, 0x8b, 0x69, 0xbd, 0xc8, 0x88, 0x1b, 0xbf, 0x8b, 0xb3, 0xb4, 0xbe,
  0x0a, 0xd3, 0x1d, 0xbf, 0xc0, 0x00, 0x60, 0xbe, 0x57, 0xd1, 0x51, 0x3c,
  0x49, 0xf9, 0xba, 0xbd, 0xc2, 0x99, 0x6c, 0x3d, 0x7b, 0x59, 0x9d, 0x3a,
  0xfa, 0x82, 0x47, 0xbd, 0xd3, 0x22, 0x07, 0x3e, 0x01, 0xd3, 0x37, 0x3d,
  0x69, 0xf1, 0xa2, 0x3d, 0x33, 0x05, 0xae, 0x3d, 0x1b, 0x71, 0xc2, 0xbc,
  0x90, 0x29, 0x62, 0xbe, 0x6a, 0x69, 0x8c, 0x3e, 0xe8, 0xda, 0xcf, 0xbe,
  0x90, 0x55, 0x45, 0xbe, 0x4e, 0x0c, 0x7b, 0xbe, 0x29, 0xa6, 0x36, 0xbe,
  0x06, 0x6b, 0xb8, 0xbd, 0x46, 0xd2, 0x28, 0xbe, 0x71, 0xc0, 0x9b, 0x3e,
  0xca, 0x7e, 0x8a, 0xbe, 0x20, 0xb7, 0xec, 0xbe, 0x29, 0x09, 0x05, 0xbf,
  0x7d, 0x46, 0xf9, 0xbe, 0xf4, 0xd0, 0x87, 0xbe, 0xb8, 0xfd, 0x0b, 0xbd,
  0x04, 0xfc, 0x1e, 0xbe, 0xb1, 0x8f, 0xbe, 0x3d, 0x8d, 0xf6, 0x27, 0xbe,
  0xd0, 0xe0, 0x36, 0x3e, 0xda, 0x09, 0xb0, 0xbd, 0xdb, 0x27, 0x4e, 0x3d,
  0x1f, 0xec, 0xb8, 0xbd, 0xc1, 0x63, 0x6a, 0x3e, 0x4e, 0xf7, 0xa0, 0x3e,
  0xad, 0x0c, 0x92, 0xbe, 0xaa, 0x8b, 0xdd, 0x3e, 0x50, 0xa0, 0x24, 0x3e,
  0xda, 0x12, 0x12, 0x3f, 0xd2, 0x0d, 0xed, 0x3e, 0x12, 0xf3, 0x35, 0xbf,
  0x12, 0xad, 0x71, 0xbc, 0x3e, 0x8d, 0x8a, 0x3b, 0x3b, 0xf6, 0xd2, 0xbe,
  0xf9, 0x62, 0x47, 0x3f, 0xa0, 0x1c, 0x84, 0xbe, 0x28, 0x18, 0x1d, 0xbd,
  0x42, 0x0e, 0x02, 0xbe, 0xf7, 0x45, 0x01, 0x3f, 0xb1, 0xb1, 0xa1, 0x3d,
  0x51, 0xf8, 0x87, 0xbe, 0x4b, 0xc5, 0xd9, 0x3d, 0x8e, 0xb6, 0x96, 0x3d,
  0x59, 0xdf, 0x00, 0xbe, 0xfe, 0x4e, 0x14, 0xbe, 0x14, 0x80, 0xfb, 0x3c,
  0xe9, 0x43, 0x7e, 0xbe, 0x21, 0x13, 0x10, 0x3e, 0x93, 0xdf, 0x0c, 0x3e,
  0xd1, 0x29, 0x16, 0x3e, 0x7e, 0x1d, 0xf7, 0xbd, 0x49, 0xd5, 0x0c, 0xbd,
  0x05, 0xf7, 0xbd, 0x3e, 0x21, 0x74, 0x8a, 0x3e, 0x85, 0xb6, 0x04, 0xbf,
  0xdc, 0xd9, 0x96, 0x3d, 0xf9, 0xb2, 0xa9, 0xbd, 0xda, 0xc7, 0x2e, 0xbe,
  0xfc, 0xe1, 0x46, 0x3f, 0xff, 0xe7, 0x63, 0xbe, 0xbf, 0xe7, 0xc7, 0x3c,
  0x67, 0x62, 0x80, 0xbe, 0xf9, 0x93, 0x0f, 0x3f, 0x04, 0x8b, 0x33, 0x3e,
  0xa2, 0xc1, 0x7c, 0x3d, 0x04, 0x15, 0xc8, 0x3d, 0xc4, 0xbc, 0xba, 0x3e,
  0x0c, 0xc2, 0x21, 0xbe, 0x90, 0x47, 0x0e, 0xbe, 0x53, 0xbc, 0x7d, 0x3d,
  0xad, 0xe5, 0x77, 0xbd, 0x44, 0x89, 0xed, 0x3d, 0x9b, 0xf0, 0x88, 0x3c,
  0x01, 0xa3, 0xf5, 0xbb, 0x08, 0x5f, 0x85, 0x3d, 0xf0, 0x51, 0x3a, 0xbe,
  0x29, 0x2c, 0x52, 0x3f, 0xd7, 0xef, 0xf1, 0x3e, 0xf0, 0x7a, 0x55, 0xbf,
  0xf4, 0x6b, 0x19, 0x3e, 0x98, 0x55, 0x14, 0x3d, 0x14, 0x3d, 0xd5, 0xbe,
  0x5b, 0x15, 0x0d, 0x3f, 0x40, 0x31, 0x53, 0xbe, 0x46, 0x5c, 0x11, 0xbe,
  0xf6, 0xf7, 0x70, 0xbe, 0x67, 0xfe, 0xff, 0x3e, 0x08, 0xe5, 0x49, 0x3e,
  0x67, 0xff, 0x1d, 0x3e, 0x0a, 0xe9, 0x02, 0x3e, 0x3c, 0x91, 0x3a, 0x3e,
  0x07, 0xfd, 0x10, 0xbe, 0x25, 0xbc, 0x3f, 0xbe, 0xc8, 0x1d, 0xcc, 0x3d,
  0x7e, 0x89, 0x7c, 0xbe, 0x16, 0xb9, 0x6a, 0x3e, 0x68, 0x6e, 0xdb, 0x3d,
  0x2d, 0x60, 0x4f, 0x3c, 0x17, 0x21, 0x3a, 0xbd, 0x1a, 0xf0, 0x20, 0xbe,
  0x09, 0x1f, 0xea, 0x3e, 0xf8, 0x72, 0x04, 0x3e, 0xf5, 0x17, 0x3f, 0xbf,
  0x97, 0x41, 0x94, 0xbe, 0x1f, 0xa5, 0x48, 0x3f, 0x80, 0xf8, 0xf9, 0x3e,
  0x71, 0xa8, 0x78, 0xbf, 0x75, 0x7c, 0x00, 0xbf, 0x86, 0x66, 0x28, 0xbf,
  0xd5, 0xb5, 0xfa, 0xbe, 0xfa, 0x99, 0x01, 0xbe, 0x0d, 0xa8, 0x06, 0x3e,
  0x6f, 0x4f, 0x3c, 0x3e, 0x0a, 0xe2, 0x3f, 0x3e, 0x41, 0x9f, 0x16, 0x3e,
  0x31, 0xb4, 0xbb, 0xbd, 0x05, 0xd9, 0xfa, 0xbd, 0x6b, 0xc4, 0xd2, 0xbd,
  0x3a, 0x75, 0xdf, 0x3d, 0xef, 0xcc, 0x94, 0x3c, 0xd1, 0x64, 0x6d, 0xbd,
  0xb6, 0x81, 0x8e, 0x3d, 0x4b, 0x7a, 0x2a, 0x3e, 0xaa, 0x9b, 0x84, 0xbe,
  0x98, 0xdc, 0x29, 0x3f, 0xf8, 0x6f, 0xd8, 0x3e, 0x56, 0x91, 0x3a, 0xbf,
  0x94, 0xc1, 0x18, 0xbe, 0x7e, 0x2b, 0x3f, 0x3f, 0xc4, 0x21, 0x1a, 0x3f,
  0x33, 0x7f, 0x86, 0xbf, 0x22, 0x45, 0x25, 0xbf, 0x6a, 0x29, 0x19, 0xbf,
  0xd0, 0xd7, 0xda, 0xbe, 0x0a, 0x69, 0x59, 0x3d, 0xb2, 0x5d, 0xb5, 0x3d,
  0xeb, 0xe3, 0x5a, 0xbe, 0x0e, 0x61, 0xc7, 0x3d, 0x58, 0x44, 0x04, 0x3e,
  0x55, 0xf2, 0xb3, 0xbd, 0x0b, 0x67, 0xb0, 0xbd, 0xda, 0xad, 0x0e, 0x3e,
  0x36, 0x0e, 0x8e, 0x3c, 0x9a, 0x53, 0xd4, 0x3d, 0x5b, 0x30, 0xc3, 0x3e,
  0x3d, 0x86, 0xac, 0x3e, 0x3e, 0x61, 0x2b, 0x3d, 0x45, 0x22, 0xff, 0xbe,
  0x1e, 0x6b, 0x86, 0x3f, 0x12, 0x45, 0xfa, 0x3e, 0x25, 0xe7, 0x72, 0xbf,
  0x9e, 0xf2, 0x0c, 0xbf, 0xa4, 0x9a, 0x78, 0x3f, 0xc5, 0x6c, 0x28, 0x3f,
  0x57, 0x7f, 0x46, 0xbf, 0x87, 0xe6, 0x87, 0xbe, 0x39, 0x4f, 0xed, 0xbe,
  0x94, 0x9c, 0x23, 0xbf, 0x46, 0xb4, 0xe6, 0x3e, 0xa4, 0xa7, 0x6e, 0xbd,
  0x44, 0x9c, 0xfd, 0x3d, 0xce, 0xb8, 0xa2, 0x3d, 0xf2, 0xcb, 0xbf, 0x3d,
  0xd1, 0x84, 0x0d, 0xbd, 0x92, 0x37, 0x79, 0xbe, 0x13, 0xff, 0x0e, 0xbe,
  0xfb, 0x4a, 0xba, 0xbd, 0x1c, 0x4c, 0x5c, 0x3c, 0x32, 0x17, 0x56, 0x3e,
  0xca, 0x97, 0x8e, 0xbd, 0x0f, 0x79, 0x77, 0x3d, 0xc6, 0xfd, 0xff, 0xff,
  0x04, 0x00, 0x00, 0x00, 0x08, 0x00, 0x00, 0x00, 0xff, 0xff, 0xff, 0xff,
  0x48, 0x00, 0x00, 0x00, 0xda, 0xfd, 0xff, 0xff, 0x04, 0x00, 0x00, 0x00,
  0x28, 0x00, 0x00, 0x00, 0xfb, 0x40, 0x0a, 0xbe, 0xe4, 0xf6, 0xc3, 0x3e,
  0xcc, 0x9f, 0xbb, 0x3d, 0xeb, 0x31, 0xba, 0xbe, 0xf3, 0xc8, 0x9f, 0xbe,
  0x02, 0xe0, 0x29, 0x3f, 0x43, 0xe3, 0xaf, 0x3e, 0x39, 0xe2, 0x5a, 0xbe,
  0x29, 0xc9, 0x24, 0xbd, 0xf4, 0x0f, 0xbb, 0xbe, 0x0e, 0xfe, 0xff, 0xff,
  0x04, 0x00, 0x00, 0x00, 0x14, 0x00, 0x00, 0x00, 0xdf, 0x54, 0x22, 0x3f,
  0x94, 0x17, 0x0e, 0x3e, 0x68, 0x86, 0x00, 0xbf, 0x34, 0xa4, 0x40, 0xbe,
  0xf5, 0x35, 0x50, 0xbe, 0x2e, 0xfe, 0xff, 0xff, 0x04, 0x00, 0x00, 0x00,
  0xc0, 0x00, 0x00, 0x00, 0x2d, 0x88, 0x0f, 0x3f, 0x72, 0x5f, 0xb0, 0x3e,
  0x66, 0x3f, 0x4b, 0x3e, 0x4e, 0xa5, 0x40, 0xbe, 0x8f, 0xb1, 0xac, 0xbd,
  0x3b, 0xf5, 0xc5, 0xbd, 0x7c, 0xe6, 0x80, 0x3e, 0xdf, 0x22, 0xc9, 0xbd,
  0x2e, 0x98, 0x2a, 0xbe, 0xfb, 0x56, 0x9b, 0xbe, 0x4f, 0xba, 0xeb, 0xbd,
  0xe9, 0x80, 0x43, 0x3f, 0xc5, 0x30, 0x1b, 0xbe, 0xc1, 0x6f, 0x16, 0xbe,
  0xb6, 0xbe, 0x73, 0x3e, 0x31, 0x6c, 0x0b, 0xbf, 0x48, 0xe1, 0x50, 0xbe,
  0x04, 0xcf, 0x3a, 0xbf, 0xba, 0x12, 0xb7, 0xbe, 0xb2, 0x20, 0x91, 0xbe,
  0x9b, 0x3f, 0xcf, 0x3e, 0xa1, 0xbb, 0xf6, 0xbe, 0xc2, 0xd0, 0xdd, 0xbd,
  0x63, 0xb3, 0xf5, 0xbd, 0xf1, 0xc0, 0x64, 0x3e, 0x0e, 0x5e, 0x38, 0xbe,
  0x20, 0xd2, 0xd8, 0x3e, 0x6b, 0x59, 0x93, 0xbd, 0x9c, 0x3d, 0xeb, 0x3d,
  0xc5, 0x9b, 0x1f, 0x3e, 0x6b, 0xbf, 0xaa, 0x3e, 0x98, 0x63, 0x9f, 0x3e,
  0xda, 0x38, 0x36, 0x3e, 0xb0, 0x1f, 0xb6, 0xbe, 0xd8, 0x15, 0xee, 0x3d,
  0xc3, 0x63, 0x45, 0xbd, 0x94, 0x7c, 0xa2, 0xbe, 0x6d, 0x9b, 0xa6, 0x3e,
  0x39, 0xd4, 0x49, 0xbe, 0x80, 0xda, 0xdf, 0x3e, 0x1a, 0xd6, 0xc3, 0x3e,
  0x59, 0x0f, 0x03, 0xbd, 0x3d, 0x81, 0xe7, 0xbe, 0x00, 0xc1, 0x31, 0x3e,
  0xfd, 0x9d, 0x29, 0x3e, 0xbf, 0x4f, 0xd1, 0x3e, 0x5c, 0xa7, 0xd6, 0xbe,
  0x5e, 0x83, 0xb0, 0x3e, 0xfa, 0xfe, 0xff, 0xff, 0x04, 0x00, 0x00, 0x00,
  0x30, 0x00, 0x00, 0x00, 0xda, 0xb0, 0xbc, 0x3e, 0x8b, 0x18, 0xed, 0x3e,
  0x86, 0xcd, 0x76, 0xbe, 0xf8, 0x6c, 0x5a, 0xbe, 0xcd, 0x24, 0x9f, 0xbe,
  0xaf, 0x43, 0x1b, 0xbf, 0x5f, 0xf8, 0x86, 0x3e, 0xaf, 0x86, 0xe3, 0xbe,
  0xe0, 0x99, 0xeb, 0xbe, 0x60, 0x6c, 0xf3, 0x3e, 0x66, 0x97, 0x94, 0xbe,
  0xfc, 0x92, 0xb1, 0xbe, 0x36, 0xff, 0xff, 0xff, 0x04, 0x00, 0x00, 0x00,
  0x10, 0x00, 0x00, 0x00, 0x74, 0xb7, 0xdb, 0x3d, 0xe0, 0x1c, 0x22, 0x3f,
  0xc2, 0x5a, 0x8d, 0x3e, 0xaf, 0xe1, 0x6f, 0xbe, 0x52, 0xff, 0xff, 0xff,
  0x04, 0x00, 0x00, 0x00, 0x10, 0x00, 0x00, 0x00, 0x47, 0x1c, 0x6a, 0x3d,
  0x26, 0x5b, 0xeb, 0x3e, 0x87, 0x38, 0x05, 0xbf, 0x99, 0x49, 0xd8, 0x3c,
  0xf8, 0xf5, 0xff, 0xff, 0xfc, 0xf5, 0xff, 0xff, 0x0f, 0x00, 0x00, 0x00,
  0x4d, 0x4c, 0x49, 0x52, 0x20, 0x43, 0x6f, 0x6e, 0x76, 0x65, 0x72, 0x74,
  0x65, 0x64, 0x2e, 0x00, 0x01, 0x00, 0x00, 0x00, 0x14, 0x00, 0x00, 0x00,
  0x00, 0x00, 0x0e, 0x00, 0x18, 0x00, 0x14, 0x00, 0x10, 0x00, 0x0c, 0x00,
  0x08, 0x00, 0x04, 0x00, 0x0e, 0x00, 0x00, 0x00, 0x14, 0x00, 0x00, 0x00,
  0x1c, 0x00, 0x00, 0x00, 0x10, 0x02, 0x00, 0x00, 0x14, 0x02, 0x00, 0x00,
  0x18, 0x02, 0x00, 0x00, 0x04, 0x00, 0x00, 0x00, 0x6d, 0x61, 0x69, 0x6e,
  0x00, 0x00, 0x00, 0x00, 0x07, 0x00, 0x00, 0x00, 0xa8, 0x01, 0x00, 0x00,
  0x54, 0x01, 0x00, 0x00, 0x00, 0x01, 0x00, 0x00, 0xc8, 0x00, 0x00, 0x00,
  0x78, 0x00, 0x00, 0x00, 0x40, 0x00, 0x00, 0x00, 0x04, 0x00, 0x00, 0x00,
  0x22, 0xff, 0xff, 0xff, 0x1c, 0x00, 0x00, 0x00, 0x00, 0x00, 0x00, 0x09,
  0x1c, 0x00, 0x00, 0x00, 0x20, 0x00, 0x00, 0x00, 0x04, 0x00, 0x00, 0x00,
  0x00, 0x00, 0x06, 0x00, 0x08, 0x00, 0x04, 0x00, 0x06, 0x00, 0x00, 0x00,
  0x00, 0x00, 0x80, 0x3f, 0x01, 0x00, 0x00, 0x00, 0x10, 0x00, 0x00, 0x00,
  0x01, 0x00, 0x00, 0x00, 0x0f, 0x00, 0x00, 0x00, 0x5a, 0xff, 0xff, 0xff,
  0x14, 0x00, 0x00, 0x00, 0x00, 0x00, 0x00, 0x08, 0x10, 0x00, 0x00, 0x00,
  0x14, 0x00, 0x00, 0x00, 0x03, 0x00, 0x00, 0x00, 0xc0, 0xf6, 0xff, 0xff,
  0x01, 0x00, 0x00, 0x00, 0x0f, 0x00, 0x00, 0x00, 0x03, 0x00, 0x00, 0x00,
  0x0e, 0x00, 0x00, 0x00, 0x09, 0x00, 0x00, 0x00, 0x05, 0x00, 0x00, 0x00,
  0x8e, 0xff, 0xff, 0xff, 0x1c, 0x00, 0x00, 0x00, 0x00, 0x00, 0x00, 0x08,
  0x1c, 0x00, 0x00, 0x00, 0x20, 0x00, 0x00, 0x00, 0x03, 0x00, 0x00, 0x00,
  0x00, 0x00, 0x06, 0x00, 0x08, 0x00, 0x07, 0x00, 0x06, 0x00, 0x00, 0x00,
  0x00, 0x00, 0x00, 0x01, 0x01, 0x00, 0x00, 0x00, 0x0e, 0x00, 0x00, 0x00,
  0x03, 0x00, 0x00, 0x00, 0x0d, 0x00, 0x00, 0x00, 0x08, 0x00, 0x00, 0x00,
  0x06, 0x00, 0x00, 0x00, 0x00, 0x00, 0x0a, 0x00, 0x10, 0x00, 0x0c, 0x00,
  0x08, 0x00, 0x04, 0x00, 0x0a, 0x00, 0x00, 0x00, 0x0c, 0x00, 0x00, 0x00,
  0x10, 0x00, 0x00, 0x00, 0x02, 0x00, 0x00, 0x00, 0x01, 0x00, 0x00, 0x00,
  0x0d, 0x00, 0x00, 0x00, 0x02, 0x00, 0x00, 0x00, 0x0c, 0x00, 0x00, 0x00,
  0x07, 0x00, 0x00, 0x00, 0x00, 0x00, 0x0e, 0x00, 0x1a, 0x00, 0x14, 0x00,
  0x10, 0x00, 0x0c, 0x00, 0x0b, 0x00, 0x04, 0x00, 0x0e, 0x00, 0x00, 0x00,
  0x24, 0x00, 0x00, 0x00, 0x00, 0x00, 0x00, 0x05, 0x34, 0x00, 0x00, 0x00,
  0x38, 0x00, 0x00, 0x00, 0x01, 0x00, 0x00, 0x00, 0x00, 0x00, 0x0e, 0x00,
  0x18, 0x00, 0x17, 0x00, 0x10, 0x00, 0x0c, 0x00, 0x08, 0x00, 0x04, 0x00,
  0x0e, 0x00, 0x00, 0x00, 0x02, 0x00, 0x00, 0x00, 0x01, 0x00, 0x00, 0x00,
  0x02, 0x00, 0x00, 0x00, 0x01, 0x00, 0x00, 0x00, 0x00, 0x00, 0x00, 0x01,
  0x01, 0x00, 0x00, 0x00, 0x0c, 0x00, 0x00, 0x00, 0x01, 0x00, 0x00, 0x00,
  0x0b, 0x00, 0x00, 0x00, 0xbe, 0xff, 0xff, 0xff, 0x10, 0x00, 0x00, 0x00,
  0x00, 0x00, 0x00, 0x01, 0x1c, 0x00, 0x00, 0x00, 0x20, 0x00, 0x00, 0x00,
  0xb0, 0xff, 0xff, 0xff, 0x00, 0x00, 0x00, 0x01, 0x01, 0x00, 0x00, 0x00,
  0x01, 0x00, 0x00, 0x00, 0x00, 0x00, 0x00, 0x01, 0x01, 0x00, 0x00, 0x00,
  0x0b, 0x00, 0x00, 0x00, 0x03, 0x00, 0x00, 0x00, 0x0a, 0x00, 0x00, 0x00,
  0x04, 0x00, 0x00, 0x00, 0x02, 0x00, 0x00, 0x00, 0x00, 0x00, 0x0e, 0x00,
  0x14, 0x00, 0x00, 0x00, 0x10, 0x00, 0x0c, 0x00, 0x0b, 0x00, 0x04, 0x00,
  0x0e, 0x00, 0x00, 0x00, 0x1c, 0x00, 0x00, 0x00, 0x00, 0x00, 0x00, 0x01,
  0x28, 0x00, 0x00, 0x00, 0x2c, 0x00, 0x00, 0x00, 0x0c, 0x00, 0x14, 0x00,
  0x13, 0x00, 0x0c, 0x00, 0x08, 0x00, 0x07, 0x00, 0x0c, 0x00, 0x00, 0x00,
  0x00, 0x00, 0x00, 0x01, 0x01, 0x00, 0x00, 0x00, 0x01, 0x00, 0x00, 0x00,
  0x00, 0x00, 0x00, 0x01, 0x01, 0x00, 0x00, 0x00, 0x0a, 0x00, 0x00, 0x00,
  0x03, 0x00, 0x00, 0x00, 0x00, 0x00, 0x00, 0x00, 0x03, 0x00, 0x00, 0x00,
  0x01, 0x00, 0x00, 0x00, 0x01, 0x00, 0x00, 0x00, 0x10, 0x00, 0x00, 0x00,
  0x01, 0x00, 0x00, 0x00, 0x00, 0x00, 0x00, 0x00, 0x11, 0x00, 0x00, 0x00,
  0x74, 0x07, 0x00, 0x00, 0x00, 0x07, 0x00, 0x00, 0x8c, 0x06, 0x00, 0x00,
  0x34, 0x06, 0x00, 0x00, 0xdc, 0x05, 0x00, 0x00, 0x80, 0x05, 0x00, 0x00,
  0x24, 0x05, 0x00, 0x00, 0xd4, 0x04, 0x00, 0x00, 0x6c, 0x04, 0x00, 0x00,
  0x1c, 0x04, 0x00, 0x00, 0x24, 0x03, 0x00, 0x00, 0x4c, 0x02, 0x00, 0x00,
  0xd4, 0x01, 0x00, 0x00, 0x74, 0x01, 0x00, 0x00, 0xdc, 0x00, 0x00, 0x00,
  0x60, 0x00, 0x00, 0x00, 0x04, 0x00, 0x00, 0x00, 0xe6, 0xf8, 0xff, 0xff,
  0x00, 0x00, 0x00, 0x01, 0x14, 0x00, 0x00, 0x00, 0x1c, 0x00, 0x00, 0x00,
  0x1c, 0x00, 0x00, 0x00, 0x11, 0x00, 0x00, 0x00, 0x34, 0x00, 0x00, 0x00,
  0x02, 0x00, 0x00, 0x00, 0xff, 0xff, 0xff, 0xff, 0x05, 0x00, 0x00, 0x00,
  0xc8, 0xf8, 0xff, 0xff, 0x19, 0x00, 0x00, 0x00, 0x53, 0x74, 0x61, 0x74,
  0x65, 0x66, 0x75, 0x6c, 0x50, 0x61, 0x72, 0x74, 0x69, 0x74, 0x69, 0x6f,
  0x6e, 0x65, 0x64, 0x43, 0x61, 0x6c, 0x6c, 0x3a, 0x30, 0x00, 0x00, 0x00,
  0x02, 0x00, 0x00, 0x00, 0x01, 0x00, 0x00, 0x00, 0x05, 0x00, 0x00, 0x00,
  0x3e, 0xf9, 0xff, 0xff, 0x00, 0x00, 0x00, 0x01, 0x14, 0x00, 0x00, 0x00,
  0x1c, 0x00, 0x00, 0x00, 0x1c, 0x00, 0x00, 0x00, 0x10, 0x00, 0x00, 0x00,
  0x54, 0x00, 0x00, 0x00, 0x02, 0x00, 0x00, 0x00, 0xff, 0xff, 0xff, 0xff,
  0x05, 0x00, 0x00, 0x00, 0x20, 0xf9, 0xff, 0xff, 0x3a, 0x00, 0x00, 0x00,
  0x73, 0x65, 0x71, 0x75, 0x65, 0x6e, 0x74, 0x69, 0x61, 0x6c, 0x5f, 0x39,
  0x2f, 0x64, 0x65, 0x6e, 0x73, 0x65, 0x5f, 0x31, 0x39, 0x2f, 0x4d, 0x61,
  0x74, 0x4d, 0x75, 0x6c, 0x3b, 0x73, 0x65, 0x71, 0x75, 0x65, 0x6e, 0x74,
  0x69, 0x61, 0x6c, 0x5f, 0x39, 0x2f, 0x64, 0x65, 0x6e, 0x73, 0x65, 0x5f,
  0x31, 0x39, 0x2f, 0x42, 0x69, 0x61, 0x73, 0x41, 0x64, 0x64, 0x00, 0x00,
  0x02, 0x00, 0x00, 0x00, 0x01, 0x00, 0x00, 0x00, 0x05, 0x00, 0x00, 0x00,
  0xb6, 0xf9, 0xff, 0xff, 0x00, 0x00, 0x00, 0x01, 0x14, 0x00, 0x00, 0x00,
  0x1c, 0x00, 0x00, 0x00, 0x1c, 0x00, 0x00, 0x00, 0x0f, 0x00, 0x00, 0x00,
  0x70, 0x00, 0x00, 0x00, 0x02, 0x00, 0x00, 0x00, 0xff, 0xff, 0xff, 0xff,
  0x0a, 0x00, 0x00, 0x00, 0x98, 0xf9, 0xff, 0xff, 0x55, 0x00, 0x00, 0x00,
  0x73, 0x65, 0x71, 0x75, 0x65, 0x6e, 0x74, 0x69, 0x61, 0x6c, 0x5f, 0x39,
  0x2f, 0x64, 0x65, 0x6e, 0x73, 0x65, 0x5f, 0x31, 0x38, 0x2f, 0x4d, 0x61,
  0x74, 0x4d, 0x75, 0x6c, 0x3b, 0x73, 0x65, 0x71, 0x75, 0x65, 0x6e, 0x74,
  0x69, 0x61, 0x6c, 0x5f, 0x39, 0x2f, 0x64, 0x65, 0x6e, 0x73, 0x65, 0x5f,
  0x31, 0x38, 0x2f, 0x52, 0x65, 0x6c, 0x75, 0x3b, 0x73, 0x65, 0x71, 0x75,
  0x65, 0x6e, 0x74, 0x69, 0x61, 0x6c, 0x5f, 0x39, 0x2f, 0x64, 0x65, 0x6e,
  0x73, 0x65, 0x5f, 0x31, 0x38, 0x2f, 0x42, 0x69, 0x61, 0x73, 0x41, 0x64,
  0x64, 0x00, 0x00, 0x00, 0x02, 0x00, 0x00, 0x00, 0x01, 0x00, 0x00, 0x00,
  0x0a, 0x00, 0x00, 0x00, 0x4a, 0xfa, 0xff, 0xff, 0x00, 0x00, 0x00, 0x01,
  0x14, 0x00, 0x00, 0x00, 0x1c, 0x00, 0x00, 0x00, 0x1c, 0x00, 0x00, 0x00,
  0x0e, 0x00, 0x00, 0x00, 0x38, 0x00, 0x00, 0x00, 0x02, 0x00, 0x00, 0x00,
  0xff, 0xff, 0xff, 0xff, 0x48, 0x00, 0x00, 0x00, 0x2c, 0xfa, 0xff, 0xff,
  0x1e, 0x00, 0x00, 0x00, 0x73, 0x65, 0x71, 0x75, 0x65, 0x6e, 0x74, 0x69,
  0x61, 0x6c, 0x5f, 0x39, 0x2f, 0x66, 0x6c, 0x61, 0x74, 0x74, 0x65, 0x6e,
  0x5f, 0x39, 0x2f, 0x52, 0x65, 0x73, 0x68, 0x61, 0x70, 0x65, 0x00, 0x00,
  0x02, 0x00, 0x00, 0x00, 0x01, 0x00, 0x00, 0x00, 0x48, 0x00, 0x00, 0x00,
  0xa6, 0xfa, 0xff, 0xff, 0x00, 0x00, 0x00, 0x01, 0x14, 0x00, 0x00, 0x00,
  0x24, 0x00, 0x00, 0x00, 0x24, 0x00, 0x00, 0x00, 0x0d, 0x00, 0x00, 0x00,
  0x48, 0x00, 0x00, 0x00, 0x04, 0x00, 0x00, 0x00, 0xff, 0xff, 0xff, 0xff,
  0x03, 0x00, 0x00, 0x00, 0x06, 0x00, 0x00, 0x00, 0x04, 0x00, 0x00, 0x00,
  0x90, 0xfa, 0xff, 0xff, 0x24, 0x00, 0x00, 0x00, 0x73, 0x65, 0x71, 0x75,
  0x65, 0x6e, 0x74, 0x69, 0x61, 0x6c, 0x5f, 0x39, 0x2f, 0x6d, 0x61, 0x78,
  0x5f, 0x70, 0x6f, 0x6f, 0x6c, 0x69, 0x6e, 0x67, 0x32, 0x64, 0x5f, 0x39,
  0x2f, 0x4d, 0x61, 0x78, 0x50, 0x6f, 0x6f, 0x6c, 0x00, 0x00, 0x00, 0x00,
  0x04, 0x00, 0x00, 0x00, 0x01, 0x00, 0x00, 0x00, 0x03, 0x00, 0x00, 0x00,
  0x06, 0x00, 0x00, 0x00, 0x04, 0x00, 0x00, 0x00, 0x1a, 0xfb, 0xff, 0xff,
  0x00, 0x00, 0x00, 0x01, 0x14, 0x00, 0x00, 0x00, 0x24, 0x00, 0x00, 0x00,
  0x24, 0x00, 0x00, 0x00, 0x0c, 0x00, 0x00, 0x00, 0xa8, 0x00, 0x00, 0x00,
  0x04, 0x00, 0x00, 0x00, 0xff, 0xff, 0xff, 0xff, 0x06, 0x00, 0x00, 0x00,
  0x06, 0x00, 0x00, 0x00, 0x04, 0x00, 0x00, 0x00, 0x04, 0xfb, 0xff, 0xff,
  0x86, 0x00, 0x00, 0x00, 0x73, 0x65, 0x71, 0x75, 0x65, 0x6e, 0x74, 0x69,
  0x61, 0x6c, 0x5f, 0x39, 0x2f, 0x63, 0x6f, 0x6e, 0x76, 0x32, 0x64, 0x5f,
  0x31, 0x39, 0x2f, 0x52, 0x65, 0x6c, 0x75, 0x3b, 0x73, 0x65, 0x71, 0x75,
  0x65, 0x6e, 0x74, 0x69, 0x61, 0x6c, 0x5f, 0x39, 0x2f, 0x63, 0x6f, 0x6e,
  0x76, 0x32, 0x64, 0x5f, 0x31, 0x39, 0x2f, 0x42, 0x69, 0x61, 0x73, 0x41,
  0x64, 0x64, 0x3b, 0x73, 0x65, 0x71, 0x75, 0x65, 0x6e, 0x74, 0x69, 0x61,
  0x6c, 0x5f, 0x39, 0x2f, 0x63, 0x6f, 0x6e, 0x76, 0x32, 0x64, 0x5f, 0x31,
  0x39, 0x2f, 0x43, 0x6f, 0x6e, 0x76, 0x32, 0x44, 0x3b, 0x73, 0x65, 0x71,
  0x75, 0x65, 0x6e, 0x74, 0x69, 0x61, 0x6c, 0x5f, 0x39, 0x2f, 0x63, 0x6f,
  0x6e, 0x76, 0x32, 0x64, 0x5f, 0x31, 0x39, 0x2f, 0x42, 0x69, 0x61, 0x73,
  0x41, 0x64, 0x64, 0x2f, 0x52, 0x65, 0x61, 0x64, 0x56, 0x61, 0x72, 0x69,
  0x61, 0x62, 0x6c, 0x65, 0x4f, 0x70, 0x00, 0x00, 0x04, 0x00, 0x00, 0x00,
  0x01, 0x00, 0x00, 0x00, 0x06, 0x00, 0x00, 0x00, 0x06, 0x00, 0x00, 0x00,
  0x04, 0x00, 0x00, 0x00, 0xee, 0xfb, 0xff, 0xff, 0x00, 0x00, 0x00, 0x01,
  0x14, 0x00, 0x00, 0x00, 0x24, 0x00, 0x00, 0x00, 0x24, 0x00, 0x00, 0x00,
  0x0b, 0x00, 0x00, 0x00, 0xc8, 0x00, 0x00, 0x00, 0x04, 0x00, 0x00, 0x00,
  0xff, 0xff, 0xff, 0xff, 0x08, 0x00, 0x00, 0x00, 0x06, 0x00, 0x00, 0x00,
  0x04, 0x00, 0x00, 0x00, 0xd8, 0xfb, 0xff, 0xff, 0xa4, 0x00, 0x00, 0x00,
  0x73, 0x65, 0x71, 0x75, 0x65, 0x6e, 0x74, 0x69, 0x61, 0x6c, 0x5f, 0x39,
  0x2f, 0x63, 0x6f, 0x6e, 0x76, 0x32, 0x64, 0x5f, 0x31, 0x38, 0x2f, 0x52,
  0x65, 0x6c, 0x75, 0x3b, 0x73, 0x65, 0x71, 0x75, 0x65, 0x6e, 0x74, 0x69,
  0x61, 0x6c, 0x5f, 0x39, 0x2f, 0x63, 0x6f, 0x6e, 0x76, 0x32, 0x64, 0x5f,
  0x31, 0x38, 0x2f, 0x42, 0x69, 0x61, 0x73, 0x41, 0x64, 0x64, 0x3b, 0x73,
  0x65, 0x71, 0x75, 0x65, 0x6e, 0x74, 0x69, 0x61, 0x6c, 0x5f, 0x39, 0x2f,
  0x63, 0x6f, 0x6e, 0x76, 0x32, 0x64, 0x5f, 0x31, 0x39, 0x2f, 0x43, 0x6f,
  0x6e, 0x76, 0x32, 0x44, 0x3b, 0x73, 0x65, 0x71, 0x75, 0x65, 0x6e, 0x74,
  0x69, 0x61, 0x6c, 0x5f, 0x39, 0x2f, 0x63, 0x6f, 0x6e, 0x76, 0x32, 0x64,
  0x5f, 0x31, 0x38, 0x2f, 0x43, 0x6f, 0x6e, 0x76, 0x32, 0x44, 0x3b, 0x73,
  0x65, 0x71, 0x75, 0x65, 0x6e, 0x74, 0x69, 0x61, 0x6c, 0x5f, 0x39, 0x2f,
  0x63, 0x6f, 0x6e, 0x76, 0x32, 0x64, 0x5f, 0x31, 0x38, 0x2f, 0x42, 0x69,
  0x61, 0x73, 0x41, 0x64, 0x64, 0x2f, 0x52, 0x65, 0x61, 0x64, 0x56, 0x61,
  0x72, 0x69, 0x61, 0x62, 0x6c, 0x65, 0x4f, 0x70, 0x00, 0x00, 0x00, 0x00,
  0x04, 0x00, 0x00, 0x00, 0x01, 0x00, 0x00, 0x00, 0x08, 0x00, 0x00, 0x00,
  0x06, 0x00, 0x00, 0x00, 0x04, 0x00, 0x00, 0x00, 0x52, 0xfd, 0xff, 0xff,
  0x00, 0x00, 0x00, 0x01, 0x10, 0x00, 0x00, 0x00, 0x10, 0x00, 0x00, 0x00,
  0x0a, 0x00, 0x00, 0x00, 0x2c, 0x00, 0x00, 0x00, 0xb4, 0xfc, 0xff, 0xff,
  0x1c, 0x00, 0x00, 0x00, 0x73, 0x65, 0x71, 0x75, 0x65, 0x6e, 0x74, 0x69,
  0x61, 0x6c, 0x5f, 0x39, 0x2f, 0x64, 0x65, 0x6e, 0x73, 0x65, 0x5f, 0x31,
  0x39, 0x2f, 0x4d, 0x61, 0x74, 0x4d, 0x75, 0x6c, 0x00, 0x00, 0x00, 0x00,
  0x02, 0x00, 0x00, 0x00, 0x05, 0x00, 0x00, 0x00, 0x0a, 0x00, 0x00, 0x00,
  0x9e, 0xfd, 0xff, 0xff, 0x00, 0x00, 0x00, 0x01, 0x10, 0x00, 0x00, 0x00,
  0x10, 0x00, 0x00, 0x00, 0x09, 0x00, 0x00, 0x00, 0x2c, 0x00, 0x00, 0x00,
  0x00, 0xfd, 0xff, 0xff, 0x1c, 0x00, 0x00, 0x00, 0x73, 0x65, 0x71, 0x75,
  0x65, 0x6e, 0x74, 0x69, 0x61, 0x6c, 0x5f, 0x39, 0x2f, 0x64, 0x65, 0x6e,
  0x73, 0x65, 0x5f, 0x31, 0x38, 0x2f, 0x4d, 0x61, 0x74, 0x4d, 0x75, 0x6c,
  0x00, 0x00, 0x00, 0x00, 0x02, 0x00, 0x00, 0x00, 0x0a, 0x00, 0x00, 0x00,
  0x48, 0x00, 0x00, 0x00, 0x00, 0x00, 0x16, 0x00, 0x1c, 0x00, 0x18, 0x00,
  0x17, 0x00, 0x10, 0x00, 0x0c, 0x00, 0x08, 0x00, 0x00, 0x00, 0x00, 0x00,
  0x00, 0x00, 0x07, 0x00, 0x16, 0x00, 0x00, 0x00, 0x00, 0x00, 0x00, 0x01,
  0x14, 0x00, 0x00, 0x00, 0x14, 0x00, 0x00, 0x00, 0x08, 0x00, 0x00, 0x00,
  0x00, 0x00, 0x00, 0x02, 0x2c, 0x00, 0x00, 0x00, 0x68, 0xfd, 0xff, 0xff,
  0x1c, 0x00, 0x00, 0x00, 0x73, 0x65, 0x71, 0x75, 0x65, 0x6e, 0x74, 0x69,
  0x61, 0x6c, 0x5f, 0x39, 0x2f, 0x66, 0x6c, 0x61, 0x74, 0x74, 0x65, 0x6e,
  0x5f, 0x39, 0x2f, 0x43, 0x6f, 0x6e, 0x73, 0x74, 0x00, 0x00, 0x00, 0x00,
  0x01, 0x00, 0x00, 0x00, 0x02, 0x00, 0x00, 0x00, 0x4e, 0xfe, 0xff, 0xff,
  0x00, 0x00, 0x00, 0x01, 0x10, 0x00, 0x00, 0x00, 0x10, 0x00, 0x00, 0x00,
  0x07, 0x00, 0x00, 0x00, 0x3c, 0x00, 0x00, 0x00, 0xb0, 0xfd, 0xff, 0xff,
  0x2c, 0x00, 0x00, 0x00, 0x73, 0x65, 0x71, 0x75, 0x65, 0x6e, 0x74, 0x69,
  0x61, 0x6c, 0x5f, 0x39, 0x2f, 0x64, 0x65, 0x6e, 0x73, 0x65, 0x5f, 0x31,
  0x38, 0x2f, 0x42, 0x69, 0x61, 0x73, 0x41, 0x64, 0x64, 0x2f, 0x52, 0x65,
  0x61, 0x64, 0x56, 0x61, 0x72, 0x69, 0x61, 0x62, 0x6c, 0x65, 0x4f, 0x70,
  0x00, 0x00, 0x00, 0x00, 0x01, 0x00, 0x00, 0x00, 0x0a, 0x00, 0x00, 0x00,
  0xa6, 0xfe, 0xff, 0xff, 0x00, 0x00, 0x00, 0x01, 0x10, 0x00, 0x00, 0x00,
  0x10, 0x00, 0x00, 0x00, 0x06, 0x00, 0x00, 0x00, 0x3c, 0x00, 0x00, 0x00,
  0x08, 0xfe, 0xff, 0xff, 0x2c, 0x00, 0x00, 0x00, 0x73, 0x65, 0x71, 0x75,
  0x65, 0x6e, 0x74, 0x69, 0x61, 0x6c, 0x5f, 0x39, 0x2f, 0x64, 0x65, 0x6e,
  0x73, 0x65, 0x5f, 0x31, 0x39, 0x2f, 0x42, 0x69, 0x61, 0x73, 0x41, 0x64,
  0x64, 0x2f, 0x52, 0x65, 0x61, 0x64, 0x56, 0x61, 0x72, 0x69, 0x61, 0x62,
  0x6c, 0x65, 0x4f, 0x70, 0x00, 0x00, 0x00, 0x00, 0x01, 0x00, 0x00, 0x00,
  0x05, 0x00, 0x00, 0x00, 0xfe, 0xfe, 0xff, 0xff, 0x00, 0x00, 0x00, 0x01,
  0x10, 0x00, 0x00, 0x00, 0x10, 0x00, 0x00, 0x00, 0x05, 0x00, 0x00, 0x00,
  0x2c, 0x00, 0x00, 0x00, 0x60, 0xfe, 0xff, 0xff, 0x1d, 0x00, 0x00, 0x00,
  0x73, 0x65, 0x71, 0x75, 0x65, 0x6e, 0x74, 0x69, 0x61, 0x6c, 0x5f, 0x39,
  0x2f, 0x63, 0x6f, 0x6e, 0x76, 0x32, 0x64, 0x5f, 0x31, 0x39, 0x2f, 0x43,
  0x6f, 0x6e, 0x76, 0x32, 0x44, 0x00, 0x00, 0x00, 0x04, 0x00, 0x00, 0x00,
  0x04, 0x00, 0x00, 0x00, 0x03, 0x00, 0x00, 0x00, 0x01, 0x00, 0x00, 0x00,
  0x04, 0x00, 0x00, 0x00, 0x52, 0xff, 0xff, 0xff, 0x00, 0x00, 0x00, 0x01,
  0x10, 0x00, 0x00, 0x00, 0x10, 0x00, 0x00, 0x00, 0x04, 0x00, 0x00, 0x00,
  0x2c, 0x00, 0x00, 0x00, 0xb4, 0xfe, 0xff, 0xff, 0x1d, 0x00, 0x00, 0x00,
  0x73, 0x65, 0x71, 0x75, 0x65, 0x6e, 0x74, 0x69, 0x61, 0x6c, 0x5f, 0x39,
  0x2f, 0x63, 0x6f, 0x6e, 0x76, 0x32, 0x64, 0x5f, 0x31, 0x38, 0x2f, 0x43,
  0x6f, 0x6e, 0x76, 0x32, 0x44, 0x00, 0x00, 0x00, 0x04, 0x00, 0x00, 0x00,
  0x04, 0x00, 0x00, 0x00, 0x03, 0x00, 0x00, 0x00, 0x01, 0x00, 0x00, 0x00,
  0x01, 0x00, 0x00, 0x00, 0xa6, 0xff, 0xff, 0xff, 0x00, 0x00, 0x00, 0x01,
  0x10, 0x00, 0x00, 0x00, 0x10, 0x00, 0x00, 0x00, 0x03, 0x00, 0x00, 0x00,
  0x3c, 0x00, 0x00, 0x00, 0x08, 0xff, 0xff, 0xff, 0x2d, 0x00, 0x00, 0x00,
  0x73, 0x65, 0x71, 0x75, 0x65, 0x6e, 0x74, 0x69, 0x61, 0x6c, 0x5f, 0x39,
  0x2f, 0x63, 0x6f, 0x6e, 0x76, 0x32, 0x64, 0x5f, 0x31, 0x39, 0x2f, 0x42,
  0x69, 0x61, 0x73, 0x41, 0x64, 0x64, 0x2f, 0x52, 0x65, 0x61, 0x64, 0x56,
  0x61, 0x72, 0x69, 0x61, 0x62, 0x6c, 0x65, 0x4f, 0x70, 0x00, 0x00, 0x00,
  0x01, 0x00, 0x00, 0x00, 0x04, 0x00, 0x00, 0x00, 0x00, 0x00, 0x16, 0x00,
  0x18, 0x00, 0x14, 0x00, 0x00, 0x00, 0x10, 0x00, 0x0c, 0x00, 0x08, 0x00,
  0x00, 0x00, 0x00, 0x00, 0x00, 0x00, 0x07, 0x00, 0x16, 0x00, 0x00, 0x00,
  0x00, 0x00, 0x00, 0x01, 0x10, 0x00, 0x00, 0x00, 0x10, 0x00, 0x00, 0x00,
  0x02, 0x00, 0x00, 0x00, 0x3c, 0x00, 0x00, 0x00, 0x78, 0xff, 0xff, 0xff,
  0x2d, 0x00, 0x00, 0x00, 0x73, 0x65, 0x71, 0x75, 0x65, 0x6e, 0x74, 0x69,
  0x61, 0x6c, 0x5f, 0x39, 0x2f, 0x63, 0x6f, 0x6e, 0x76, 0x32, 0x64, 0x5f,
  0x31, 0x38, 0x2f, 0x42, 0x69, 0x61, 0x73, 0x41, 0x64, 0x64, 0x2f, 0x52,
  0x65, 0x61, 0x64, 0x56, 0x61, 0x72, 0x69, 0x61, 0x62, 0x6c, 0x65, 0x4f,
  0x70, 0x00, 0x00, 0x00, 0x01, 0x00, 0x00, 0x00, 0x04, 0x00, 0x00, 0x00,
  0x00, 0x00, 0x16, 0x00, 0x1c, 0x00, 0x18, 0x00, 0x00, 0x00, 0x14, 0x00,
  0x10, 0x00, 0x0c, 0x00, 0x00, 0x00, 0x00, 0x00, 0x08, 0x00, 0x07, 0x00,
  0x16, 0x00, 0x00, 0x00, 0x00, 0x00, 0x00, 0x01, 0x14, 0x00, 0x00, 0x00,
  0x28, 0x00, 0x00, 0x00, 0x28, 0x00, 0x00, 0x00, 0x01, 0x00, 0x00, 0x00,
  0x48, 0x00, 0x00, 0x00, 0x04, 0x00, 0x00, 0x00, 0xff, 0xff, 0xff, 0xff,
  0x0a, 0x00, 0x00, 0x00, 0x06, 0x00, 0x00, 0x00, 0x01, 0x00, 0x00, 0x00,
  0x04, 0x00, 0x04, 0x00, 0x04, 0x00, 0x00, 0x00, 0x21, 0x00, 0x00, 0x00,
  0x73, 0x65, 0x72, 0x76, 0x69, 0x6e, 0x67, 0x5f, 0x64, 0x65, 0x66, 0x61,
  0x75, 0x6c, 0x74, 0x5f, 0x63, 0x6f, 0x6e, 0x76, 0x32, 0x64, 0x5f, 0x31,
  0x38, 0x5f, 0x69, 0x6e, 0x70, 0x75, 0x74, 0x3a, 0x30, 0x00, 0x00, 0x00,
  0x04, 0x00, 0x00, 0x00, 0x01, 0x00, 0x00, 0x00, 0x0a, 0x00, 0x00, 0x00,
  0x06, 0x00, 0x00, 0x00, 0x01, 0x00, 0x00, 0x00, 0x05, 0x00, 0x00, 0x00,
  0x50, 0x00, 0x00, 0x00, 0x34, 0x00, 0x00, 0x00, 0x24, 0x00, 0x00, 0x00,
  0x14, 0x00, 0x00, 0x00, 0x04, 0x00, 0x00, 0x00, 0xd0, 0xff, 0xff, 0xff,
  0x19, 0x00, 0x00, 0x00, 0x00, 0x00, 0x00, 0x19, 0xdc, 0xff, 0xff, 0xff,
  0x09, 0x00, 0x00, 0x00, 0x00, 0x00, 0x00, 0x09, 0xe8, 0xff, 0xff, 0xff,
  0x16, 0x00, 0x00, 0x00, 0x00, 0x00, 0x00, 0x16, 0xf4, 0xff, 0xff, 0xff,
  0x11, 0x00, 0x00, 0x00, 0x00, 0x00, 0x00, 0x11, 0x0c, 0x00, 0x0c, 0x00,
  0x0b, 0x00, 0x00, 0x00, 0x00, 0x00, 0x04, 0x00, 0x0c, 0x00, 0x00, 0x00,
  0x03, 0x00, 0x00, 0x00, 0x00, 0x00, 0x00, 0x03
};

#endif //C_MODEL__V12_H